#include <stdint.h>
const unsigned char edge_model_tflite[] = {
0x1c, 0x00, 0x00, 0x00, 0x54, 0x46, 0x4c, 0x33, 0x14, 0x00, 0x20, 0x00, 0x1c, 0x00, 0x18, 0x00, 0x14, 0x00, 0x10, 0x00, 0x0c, 0x00, 0x00, 0x00, 0x08, 0x00, 0x04, 0x00, 0x14, 0x00, 0x00, 0x00, 0x1c, 0x00, 0x00, 0x00, 0x98, 0x00, 0x00, 0x00, 0xf0, 0x00, 0x00, 0x00, 0x90, 0x05, 0x00, 0x00, 0xa0, 0x05, 0x00, 0x00, 0xac, 0x0b, 0x00, 0x00, 0x03, 0x00, 0x00, 0x00, 0x01, 0x00, 0x00, 0x00, 0x10, 0x00, 0x00, 0x00, 0x00, 0x00, 0x0a, 0x00, 0x10, 0x00, 0x0c, 0x00, 0x08, 0x00, 0x04, 0x00, 0x0a, 0x00, 0x00, 0x00, 0x0c, 0x00, 0x00, 0x00, 0x1c, 0x00, 0x00, 0x00, 0x3c, 0x00, 0x00, 0x00, 0x0f, 0x00, 0x00, 0x00, 0x73, 0x65, 0x72, 0x76, 0x69, 0x6e, 0x67, 0x5f, 0x64, 0x65, 0x66, 0x61, 0x75, 0x6c, 0x74, 0x00, 0x01, 0x00, 0x00, 0x00, 0x04, 0x00, 0x00, 0x00, 0x90, 0xff, 0xff, 0xff, 0x0a, 0x00, 0x00, 0x00, 0x04, 0x00, 0x00, 0x00, 0x08, 0x00, 0x00, 0x00, 0x6f, 0x75, 0x74, 0x70, 0x75, 0x74, 0x5f, 0x30, 0x00, 0x00, 0x00, 0x00, 0x01, 0x00, 0x00, 0x00, 0x04, 0x00, 0x00, 0x00, 0x56, 0xfa, 0xff, 0xff, 0x04, 0x00, 0x00, 0x00, 0x0c, 0x00, 0x00, 0x00, 0x6b, 0x65, 0x72, 0x61, 0x73, 0x5f, 0x74, 0x65, 0x6e, 0x73, 0x6f, 0x72, 0x00, 0x00, 0x00, 0x00, 0x02, 0x00, 0x00, 0x00, 0x34, 0x00, 0x00, 0x00, 0x04, 0x00, 0x00, 0x00, 0xdc, 0xff, 0xff, 0xff, 0x0d, 0x00, 0x00, 0x00, 0x04, 0x00, 0x00, 0x00, 0x13, 0x00, 0x00, 0x00, 0x43, 0x4f, 0x4e, 0x56, 0x45, 0x52, 0x53, 0x49, 0x4f, 0x4e, 0x5f, 0x4d, 0x45, 0x54, 0x41, 0x44, 0x41, 0x54, 0x41, 0x00, 0x08, 0x00, 0x0c, 0x00, 0x08, 0x00, 0x04, 0x00, 0x08, 0x00, 0x00, 0x00, 0x0c, 0x00, 0x00, 0x00, 0x04, 0x00, 0x00, 0x00, 0x13, 0x00, 0x00, 0x00, 0x6d, 0x69, 0x6e, 0x5f, 0x72, 0x75, 0x6e, 0x74, 0x69, 0x6d, 0x65, 0x5f, 0x76, 0x65, 0x72, 0x73, 0x69, 0x6f, 0x6e, 0x00, 0x0e, 0x00, 0x00, 0x00, 0x9c, 0x04, 0x00, 0x00, 0x94, 0x04, 0x00, 0x00, 0x64, 0x04, 0x00, 0x00, 0x44, 0x04, 0x00, 0x00, 0xb4, 0x03, 0x00, 0x00, 0x24, 0x02, 0x00, 0x00, 0xf4, 0x00, 0x00, 0x00, 0xb4, 0x00, 0x00, 0x00, 0xac, 0x00, 0x00, 0x00, 0xa4, 0x00, 0x00, 0x00, 0x9c, 0x00, 0x00, 0x00, 0x94, 0x00, 0x00, 0x00, 0x74, 0x00, 0x00, 0x00, 0x04, 0x00, 0x00, 0x00, 0x0a, 0xfb, 0xff, 0xff, 0x04, 0x00, 0x00, 0x00, 0x60, 0x00, 0x00, 0x00, 0x0c, 0x00, 0x00, 0x00, 0x08, 0x00, 0x0e, 0x00, 0x08, 0x00, 0x04, 0x00, 0x08, 0x00, 0x00, 0x00, 0x10, 0x00, 0x00, 0x00, 0x28, 0x00, 0x00, 0x00, 0x00, 0x00, 0x06, 0x00, 0x08, 0x00, 0x04, 0x00, 0x06, 0x00, 0x00, 0x00, 0x04, 0x00, 0x00, 0x00, 0x01, 0x00, 0x00, 0x00, 0xea, 0x03, 0x00, 0x00, 0x0c, 0x00, 0x18, 0x00, 0x14, 0x00, 0x10, 0x00, 0x0c, 0x00, 0x04, 0x00, 0x0c, 0x00, 0x00, 0x00, 0x8c, 0x51, 0xda, 0x03, 0x98, 0xb2, 0x49, 0x8e, 0x02, 0x00, 0x00, 0x00, 0x02, 0x00, 0x00, 0x00, 0x04, 0x00, 0x00, 0x00, 0x06, 0x00, 0x00, 0x00, 0x32, 0x2e, 0x32, 0x31, 0x2e, 0x30, 0x00, 0x00, 0x76, 0xfb, 0xff, 0xff, 0x04, 0x00, 0x00, 0x00, 0x10, 0x00, 0x00, 0x00, 0x31, 0x2e, 0x35, 0x2e, 0x30, 0x00, 0x00, 0x00, 0x00, 0x00, 0x00, 0x00, 0x00, 0x00, 0x00, 0x00, 0x34, 0xf6, 0xff, 0xff, 0x38, 0xf6, 0xff, 0xff, 0x3c, 0xf6, 0xff, 0xff, 0x40, 0xf6, 0xff, 0xff, 0xa2, 0xfb, 0xff, 0xff, 0x04, 0x00, 0x00, 0x00, 0x30, 0x00, 0x00, 0x00, 0x87, 0xd4, 0xe7, 0xbd, 0xb0, 0x1c, 0x03, 0x3f, 0xd5, 0x51, 0x2f, 0x3c, 0x79, 0x47, 0xfd, 0x3e, 0x26, 0x06, 0x01, 0x3f, 0x55, 0xb9, 0x08, 0x3f, 0x0f, 0x4f, 0xa1, 0x3e, 0x67, 0xd6, 0xe8, 0x3e, 0x3b, 0x6b, 0x8b, 0xbd, 0xc3, 0x2f, 0xf4, 0x3e, 0xf1, 0xc3, 0x2a, 0xbe, 0xa0, 0xcd, 0x20, 0x3e, 0xde, 0xfb, 0xff, 0xff, 0x04, 0x00, 0x00, 0x00, 0x20, 0x01, 0x00, 0x00, 0x16, 0x98, 0xb9, 0x3d, 0xe1, 0x02, 0x48, 0x3d, 0x4e, 0x11, 0x37, 0xbe, 0xe1, 0x05, 0xd9, 0x3e, 0x3e, 0x36, 0x24, 0xbd, 0x55, 0x7b, 0x1f, 0xbe, 0xcd, 0x15, 0x94, 0xbe, 0xf2, 0x53, 0x8a, 0x3d, 0xe4, 0x2f, 0x30, 0x3e, 0xcc, 0x60, 0x50, 0x3e, 0x02, 0x48, 0x8b, 0xba, 0xde, 0xf4, 0x24, 0x3d, 0x6a, 0x54, 0x07, 0xbf, 0xc3, 0xb8, 0x2c, 0xbe, 0x64, 0xa9, 0x03, 0xbf, 0xc1, 0x2f, 0xc7, 0x3e, 0x24, 0x6a, 0x00, 0x3f, 0xb4, 0x22, 0xb4, 0x3e, 0x53, 0xd5, 0x1c, 0xbf, 0x7f, 0xcb, 0xe7, 0x3e, 0xbf, 0x9c, 0x8a, 0x3e, 0x2f, 0xad, 0x13, 0x3c, 0x02, 0x5a, 0xa7, 0xbe, 0x63, 0x2f, 0x7e, 0xbf, 0x48, 0x9f, 0x41, 0x3f, 0x57, 0xed, 0x22, 0xbc, 0xbb, 0xa9, 0x91, 0x3f, 0x2a, 0x15, 0x92, 0xbe, 0x82, 0x74, 0xbc, 0xbf, 0x22, 0x87, 0xc6, 0x3e, 0x4e, 0xde, 0x7c, 0xbe, 0x36, 0xce, 0x15, 0xbf, 0x39, 0x63, 0xe0, 0xbd, 0x39, 0x57, 0xb5, 0x3e, 0x36, 0xb1, 0xdc, 0x3e, 0xaf, 0xc0, 0xbb, 0x3e, 0x79, 0x63, 0xc1, 0xbe, 0xf5, 0x8e, 0xf3, 0xbe, 0x2e, 0x2b, 0x0d, 0x3e, 0xc0, 0x4a, 0xd4, 0xbe, 0x87, 0xa3, 0x0e, 0xbe, 0x42, 0x9e, 0x4e, 0xbf, 0x34, 0x5b, 0x69, 0x3f, 0x46, 0x3f, 0xf6, 0xbe, 0xac, 0x42, 0x35, 0xbc, 0x19, 0xab, 0x85, 0xbe, 0x53, 0x99, 0x56, 0xbf, 0xad, 0x63, 0xb1, 0x3e, 0xfe, 0x57, 0xf9, 0x3e, 0x60, 0xe5, 0xb2, 0xbe, 0x37, 0x69, 0x78, 0xbe, 0x5c, 0xbb, 0x80, 0xbe, 0x78, 0xa2, 0x3c, 0xbf, 0x29, 0x85, 0x48, 0x3e, 0xe4, 0xe4, 0xa9, 0xbe, 0x8a, 0x9c, 0xd5, 0xbe, 0xc0, 0x35, 0x06, 0x3f, 0xc8, 0x14, 0xf5, 0xbe, 0x0f, 0x52, 0xe0, 0x3e, 0x05, 0x29, 0x94, 0x3e, 0x4c, 0xef, 0xb4, 0xbe, 0x6b, 0x14, 0x42, 0x3e, 0x35, 0xc7, 0xbb, 0xbe, 0x7e, 0xbd, 0x89, 0x3e, 0xf1, 0xdb, 0x1e, 0x3e, 0x9e, 0x38, 0xe5, 0xbd, 0xd4, 0x0a, 0x31, 0x3f, 0xb5, 0x51, 0x3c, 0x3d, 0xce, 0xbf, 0xda, 0x3e, 0x35, 0x1a, 0x1f, 0xbf, 0x6f, 0x1f, 0x66, 0xbe, 0xf9, 0xb5, 0xca, 0x3e, 0x0a, 0xfd, 0xff, 0xff, 0x04, 0x00, 0x00, 0x00, 0x80, 0x01, 0x00, 0x00, 0x18, 0x4b, 0xc1, 0x3e, 0xd3, 0x4e, 0x40, 0x3f, 0x62, 0xe1, 0x8e, 0x3e, 0x79, 0x11, 0x64, 0x3f, 0x6d, 0x00, 0x14, 0x3d, 0x67, 0xc9, 0x12, 0x3f, 0x7a, 0x7a, 0x83, 0x3e, 0x85, 0x2f, 0xa3, 0xbe, 0x1e, 0xe3, 0xa4, 0xbe, 0x85, 0x36, 0x69, 0x3f, 0xaf, 0x53, 0x85, 0x3d, 0x16, 0x4e, 0xbf, 0x3c, 0x63, 0x45, 0x58, 0xbc, 0xaa, 0x8e, 0xa7, 0x3e, 0x21, 0xf9, 0xfa, 0x3e, 0xbd, 0x2a, 0xa7, 0xbe, 0x83, 0xe6, 0x0b, 0x3e, 0xec, 0x89, 0xe5, 0x3e, 0x03, 0xe7, 0xb6, 0xbe, 0xfe, 0x1f, 0x8d, 0xbe, 0x62, 0x64, 0xe4, 0xbe, 0xe7, 0xbc, 0xc0, 0xbe, 0xf0, 0x58, 0xf1, 0xbe, 0x3b, 0x32, 0xf1, 0xbe, 0x06, 0xb0, 0xcb, 0xbe, 0xa0, 0x0f, 0xb4, 0x3e, 0x03, 0xa0, 0xb8, 0xbe, 0xa0, 0x7a, 0xe0, 0xbe, 0x2f, 0xfd, 0x8d, 0x3f, 0x95, 0x6a, 0x37, 0xbf, 0x7f, 0xc4, 0xb1, 0x3d, 0x9b, 0xfd, 0xfd, 0x3e, 0x69, 0xbd, 0x98, 0xbd, 0x73, 0xe9, 0x09, 0x3f, 0x73, 0x09, 0xd6, 0x3d, 0x49, 0xe9, 0xd7, 0x3e, 0x5f, 0x2c, 0xd9, 0xbc, 0xd9, 0x66, 0x32, 0x3f, 0x66, 0xb6, 0xb2, 0xbe, 0xc3, 0xa0, 0x8b, 0x3f, 0x0e, 0x94, 0x17, 0xbe, 0xb1, 0x91, 0x9d, 0x3e, 0xb2, 0xdc, 0xf4, 0x3e, 0x39, 0xd9, 0x5e, 0xbe, 0xf2, 0xb8, 0x53, 0x3e, 0xeb, 0x11, 0xcf, 0x3e, 0xd2, 0x23, 0xf5, 0xbe, 0x3f, 0xee, 0x4f, 0xbf, 0xfe, 0x4e, 0x59, 0xbf, 0xce, 0xb9, 0x2f, 0xbf, 0x79, 0xbe, 0xbc, 0x3e, 0x60, 0xd2, 0x20, 0xbf, 0xfb, 0x2e, 0x3b, 0x3f, 0x6c, 0x8e, 0x3c, 0xbe, 0x0a, 0x50, 0x92, 0xbe, 0x9c, 0x08, 0x14, 0x3f, 0x8d, 0x9e, 0x74, 0x3f, 0x36, 0xe2, 0x0e, 0xbf, 0x77, 0xc9, 0xe0, 0x3e, 0xf2, 0x09, 0x38, 0x3f, 0x19, 0xfe, 0x09, 0xbe, 0xf0, 0x5a, 0x9b, 0x3d, 0xe3, 0xf3, 0x87, 0xbd, 0x02, 0x61, 0x30, 0xbf, 0x2a, 0x4d, 0x91, 0xbd, 0xc5, 0x1a, 0xe8, 0x3e, 0x04, 0x7d, 0xf1, 0x3e, 0x55, 0xbc, 0x21, 0xbe, 0xd8, 0x75, 0x06, 0xbf, 0x70, 0x62, 0x48, 0x3e, 0xe9, 0x7a, 0xe9, 0xbd, 0x1d, 0x4f, 0x37, 0xbe, 0x08, 0x78, 0x38, 0x3e, 0xd8, 0x49, 0xcb, 0xbe, 0x53, 0x2d, 0x37, 0x3e, 0xcd, 0xd5, 0x72, 0xbe, 0x0c, 0xcd, 0x92, 0x3e, 0x5c, 0xd1, 0x96, 0xbd, 0xd1, 0x31, 0xb1, 0x3e, 0xa7, 0x33, 0x8f, 0x3e, 0x58, 0x5d, 0x34, 0x3f, 0x0b, 0x2d, 0x8b, 0x3e, 0x04, 0xb2, 0x64, 0x3e, 0x5e, 0xd1, 0x8e, 0x3e, 0xfa, 0xaf, 0x00, 0x3f, 0xae, 0xf8, 0xb9, 0x3e, 0x14, 0xa9, 0x97, 0xbc, 0x50, 0x13, 0xeb, 0x3c, 0xe6, 0x60, 0x1c, 0xbd, 0xdb, 0x54, 0x9d, 0x3e, 0x83, 0x8f, 0x35, 0xbe, 0xad, 0xae, 0xb1, 0xbe, 0x26, 0xe2, 0x06, 0xbf, 0xe3, 0xdd, 0x8b, 0xbe, 0xe6, 0xf9, 0xdd, 0x3e, 0x09, 0x26, 0x17, 0x3e, 0x96, 0xfe, 0xff, 0xff, 0x04, 0x00, 0x00, 0x00, 0x80, 0x00, 0x00, 0x00, 0xfd, 0x71, 0xc6, 0x3e, 0xe9, 0x0b, 0xae, 0xbe, 0x51, 0x36, 0x95, 0xbf, 0x5f, 0x20, 0x2e, 0x3f, 0x97, 0x5f, 0x15, 0xbe, 0x9b, 0x26, 0xdd, 0xbe, 0x6c, 0x31, 0xdb, 0xbe, 0x9c, 0xc4, 0xd0, 0xbd, 0x33, 0xf6, 0x8e, 0x3e, 0x60, 0x54, 0x83, 0xbe, 0xc5, 0x2f, 0x34, 0xbf, 0xd9, 0xe0, 0x1b, 0x3f, 0xe3, 0xe7, 0xad, 0xbf, 0xe8, 0x0f, 0x34, 0xbf, 0xa2, 0x8e, 0xc9, 0x3e, 0x6c, 0xcb, 0xa8, 0x3d, 0x4d, 0x65, 0x65, 0xbc, 0x20, 0x43, 0xb1, 0xbe, 0x52, 0xbb, 0x5a, 0x3f, 0xc0, 0xd8, 0x31, 0xbf, 0xff, 0x76, 0x4a, 0xbe, 0x73, 0x62, 0x00, 0x3f, 0xe7, 0x5c, 0x45, 0x3e, 0xd8, 0x41, 0x04, 0x3f, 0x05, 0x25, 0x0e, 0xbf, 0xf7, 0x13, 0x2e, 0x3f, 0x02, 0x02, 0x15, 0x3e, 0x9f, 0x18, 0xe7, 0xbf, 0x7a, 0x30, 0x6d, 0x3f, 0x99, 0xf0, 0x57, 0xbe, 0x02, 0xc0, 0x3e, 0x3f, 0xab, 0x72, 0xd4, 0x3e, 0x22, 0xff, 0xff, 0xff, 0x04, 0x00, 0x00, 0x00, 0x10, 0x00, 0x00, 0x00, 0x70, 0x2b, 0x2e, 0xbd, 0xb9, 0x39, 0x80, 0x3e, 0xbb, 0x9d, 0xa3, 0x3d, 0xa1, 0xe0, 0x96, 0xbe, 0x3e, 0xff, 0xff, 0xff, 0x04, 0x00, 0x00, 0x00, 0x20, 0x00, 0x00, 0x00, 0xeb, 0x20, 0xcc, 0x3e, 0x1c, 0xce, 0x9c, 0xbd, 0xba, 0x8f, 0x92, 0x3e, 0x4f, 0x80, 0x15, 0x3f, 0x3e, 0x89, 0x27, 0x3d, 0xcb, 0x8e, 0x5c, 0xbe, 0xa5, 0xc7, 0xac, 0x3c, 0xe4, 0x86, 0x8c, 0xbe, 0x0c, 0xfa, 0xff, 0xff, 0x10, 0xfa, 0xff, 0xff, 0x0f, 0x00, 0x00, 0x00, 0x4d, 0x4c, 0x49, 0x52, 0x20, 0x43, 0x6f, 0x6e, 0x76, 0x65, 0x72, 0x74, 0x65, 0x64, 0x2e, 0x00, 0x01, 0x00, 0x00, 0x00, 0x14, 0x00, 0x00, 0x00, 0x00, 0x00, 0x0e, 0x00, 0x18, 0x00, 0x14, 0x00, 0x10, 0x00, 0x0c, 0x00, 0x08, 0x00, 0x04, 0x00, 0x0e, 0x00, 0x00, 0x00, 0x14, 0x00, 0x00, 0x00, 0x1c, 0x00, 0x00, 0x00, 0x34, 0x01, 0x00, 0x00, 0x38, 0x01, 0x00, 0x00, 0x3c, 0x01, 0x00, 0x00, 0x04, 0x00, 0x00, 0x00, 0x6d, 0x61, 0x69, 0x6e, 0x00, 0x00, 0x00, 0x00, 0x04, 0x00, 0x00, 0x00, 0xdc, 0x00, 0x00, 0x00, 0x94, 0x00, 0x00, 0x00, 0x50, 0x00, 0x00, 0x00, 0x14, 0x00, 0x00, 0x00, 0x00, 0x00, 0x0e, 0x00, 0x1a, 0x00, 0x14, 0x00, 0x10, 0x00, 0x0c, 0x00, 0x0b, 0x00, 0x04, 0x00, 0x0e, 0x00, 0x00, 0x00, 0x1c, 0x00, 0x00, 0x00, 0x00, 0x00, 0x00, 0x09, 0x1c, 0x00, 0x00, 0x00, 0x20, 0x00, 0x00, 0x00, 0x01, 0x00, 0x00, 0x00, 0x00, 0x00, 0x06, 0x00, 0x08, 0x00, 0x04, 0x00, 0x06, 0x00, 0x00, 0x00, 0x00, 0x00, 0x80, 0x3f, 0x01, 0x00, 0x00, 0x00, 0x0a, 0x00, 0x00, 0x00, 0x01, 0x00, 0x00, 0x00, 0x09, 0x00, 0x00, 0x00, 0xce, 0xff, 0xff, 0xff, 0x10, 0x00, 0x00, 0x00, 0x00, 0x00, 0x00, 0x08, 0x0c, 0x00, 0x00, 0x00, 0x10, 0x00, 0x00, 0x00, 0xd4, 0xfa, 0xff, 0xff, 0x01, 0x00, 0x00, 0x00, 0x09, 0x00, 0x00, 0x00, 0x03, 0x00, 0x00, 0x00, 0x08, 0x00, 0x00, 0x00, 0x03, 0x00, 0x00, 0x00, 0x02, 0x00, 0x00, 0x00, 0x00, 0x00, 0x0e, 0x00, 0x14, 0x00, 0x00, 0x00, 0x10, 0x00, 0x0c, 0x00, 0x0b, 0x00, 0x04, 0x00, 0x0e, 0x00, 0x00, 0x00, 0x10, 0x00, 0x00, 0x00, 0x00, 0x00, 0x00, 0x08, 0x10, 0x00, 0x00, 0x00, 0x14, 0x00, 0x00, 0x00, 0xba, 0xff, 0xff, 0xff, 0x00, 0x00, 0x00, 0x01, 0x01, 0x00, 0x00, 0x00, 0x08, 0x00, 0x00, 0x00, 0x03, 0x00, 0x00, 0x00, 0x07, 0x00, 0x00, 0x00, 0x04, 0x00, 0x00, 0x00, 0x01, 0x00, 0x00, 0x00, 0x00, 0x00, 0x0e, 0x00, 0x16, 0x00, 0x00, 0x00, 0x10, 0x00, 0x0c, 0x00, 0x0b, 0x00, 0x04, 0x00, 0x0e, 0x00, 0x00, 0x00, 0x18, 0x00, 0x00, 0x00, 0x00, 0x00, 0x00, 0x08, 0x18, 0x00, 0x00, 0x00, 0x1c, 0x00, 0x00, 0x00, 0x00, 0x00, 0x06, 0x00, 0x08, 0x00, 0x07, 0x00, 0x06, 0x00, 0x00, 0x00, 0x00, 0x00, 0x00, 0x01, 0x01, 0x00, 0x00, 0x00, 0x07, 0x00, 0x00, 0x00, 0x03, 0x00, 0x00, 0x00, 0x00, 0x00, 0x00, 0x00, 0x05, 0x00, 0x00, 0x00, 0x06, 0x00, 0x00, 0x00, 0x01, 0x00, 0x00, 0x00, 0x0a, 0x00, 0x00, 0x00, 0x01, 0x00, 0x00, 0x00, 0x00, 0x00, 0x00, 0x00, 0x0b, 0x00, 0x00, 0x00, 0x44, 0x04, 0x00, 0x00, 0xc4, 0x03, 0x00, 0x00, 0x60, 0x03, 0x00, 0x00, 0x10, 0x03, 0x00, 0x00, 0xc0, 0x02, 0x00, 0x00, 0x74, 0x02, 0x00, 0x00, 0x10, 0x02, 0x00, 0x00, 0x7c, 0x01, 0x00, 0x00, 0xe0, 0x00, 0x00, 0x00, 0x60, 0x00, 0x00, 0x00, 0x04, 0x00, 0x00, 0x00, 0xfe, 0xfb, 0xff, 0xff, 0x00, 0x00, 0x00, 0x01, 0x14, 0x00, 0x00, 0x00, 0x1c, 0x00, 0x00, 0x00, 0x1c, 0x00, 0x00, 0x00, 0x0b, 0x00, 0x00, 0x00, 0x34, 0x00, 0x00, 0x00, 0x02, 0x00, 0x00, 0x00, 0xff, 0xff, 0xff, 0xff, 0x04, 0x00, 0x00, 0x00, 0xe8, 0xfb, 0xff, 0xff, 0x1b, 0x00, 0x00, 0x00, 0x53, 0x74, 0x61, 0x74, 0x65, 0x66, 0x75, 0x6c, 0x50, 0x61, 0x72, 0x74, 0x69, 0x74, 0x69, 0x6f, 0x6e, 0x65, 0x64, 0x43, 0x61, 0x6c, 0x6c, 0x5f, 0x31, 0x3a, 0x30, 0x00, 0x02, 0x00, 0x00, 0x00, 0x01, 0x00, 0x00, 0x00, 0x04, 0x00, 0x00, 0x00, 0x56, 0xfc, 0xff, 0xff, 0x00, 0x00, 0x00, 0x01, 0x14, 0x00, 0x00, 0x00, 0x1c, 0x00, 0x00, 0x00, 0x1c, 0x00, 0x00, 0x00, 0x0a, 0x00, 0x00, 0x00, 0x58, 0x00, 0x00, 0x00, 0x02, 0x00, 0x00, 0x00, 0xff, 0xff, 0xff, 0xff, 0x04, 0x00, 0x00, 0x00, 0x40, 0xfc, 0xff, 0xff, 0x3c, 0x00, 0x00, 0x00, 0x73, 0x65, 0x71, 0x75, 0x65, 0x6e, 0x74, 0x69, 0x61, 0x6c, 0x5f, 0x31, 0x2f, 0x64, 0x65, 0x6e, 0x73, 0x65, 0x5f, 0x32, 0x5f, 0x31, 0x2f, 0x4d, 0x61, 0x74, 0x4d, 0x75, 0x6c, 0x3b, 0x73, 0x65, 0x71, 0x75, 0x65, 0x6e, 0x74, 0x69, 0x61, 0x6c, 0x5f, 0x31, 0x2f, 0x64, 0x65, 0x6e, 0x73, 0x65, 0x5f, 0x32, 0x5f, 0x31, 0x2f, 0x42, 0x69, 0x61, 0x73, 0x41, 0x64, 0x64, 0x00, 0x00, 0x00, 0x00, 0x02, 0x00, 0x00, 0x00, 0x01, 0x00, 0x00, 0x00, 0x04, 0x00, 0x00, 0x00, 0xd2, 0xfc, 0xff, 0xff, 0x00, 0x00, 0x00, 0x01, 0x14, 0x00, 0x00, 0x00, 0x1c, 0x00, 0x00, 0x00, 0x1c, 0x00, 0x00, 0x00, 0x09, 0x00, 0x00, 0x00, 0x74, 0x00, 0x00, 0x00, 0x02, 0x00, 0x00, 0x00, 0xff, 0xff, 0xff, 0xff, 0x08, 0x00, 0x00, 0x00, 0xbc, 0xfc, 0xff, 0xff, 0x58, 0x00, 0x00, 0x00, 0x73, 0x65, 0x71, 0x75, 0x65, 0x6e, 0x74, 0x69, 0x61, 0x6c, 0x5f, 0x31, 0x2f, 0x64, 0x65, 0x6e, 0x73, 0x65, 0x5f, 0x31, 0x5f, 0x32, 0x2f, 0x4d, 0x61, 0x74, 0x4d, 0x75, 0x6c, 0x3b, 0x73, 0x65, 0x71, 0x75, 0x65, 0x6e, 0x74, 0x69, 0x61, 0x6c, 0x5f, 0x31, 0x2f, 0x64, 0x65, 0x6e, 0x73, 0x65, 0x5f, 0x31, 0x5f, 0x32, 0x2f, 0x52, 0x65, 0x6c, 0x75, 0x3b, 0x73, 0x65, 0x71, 0x75, 0x65, 0x6e, 0x74, 0x69, 0x61, 0x6c, 0x5f, 0x31, 0x2f, 0x64, 0x65, 0x6e, 0x73, 0x65, 0x5f, 0x31, 0x5f, 0x32, 0x2f, 0x42, 0x69, 0x61, 0x73, 0x41, 0x64, 0x64, 0x00, 0x00, 0x00, 0x00, 0x02, 0x00, 0x00, 0x00, 0x01, 0x00, 0x00, 0x00, 0x08, 0x00, 0x00, 0x00, 0x6a, 0xfd, 0xff, 0xff, 0x00, 0x00, 0x00, 0x01, 0x14, 0x00, 0x00, 0x00, 0x1c, 0x00, 0x00, 0x00, 0x1c, 0x00, 0x00, 0x00, 0x08, 0x00, 0x00, 0x00, 0x6c, 0x00, 0x00, 0x00, 0x02, 0x00, 0x00, 0x00, 0xff, 0xff, 0xff, 0xff, 0x0c, 0x00, 0x00, 0x00, 0x54, 0xfd, 0xff, 0xff, 0x52, 0x00, 0x00, 0x00, 0x73, 0x65, 0x71, 0x75, 0x65, 0x6e, 0x74, 0x69, 0x61, 0x6c, 0x5f, 0x31, 0x2f, 0x64, 0x65, 0x6e, 0x73, 0x65, 0x5f, 0x31, 0x2f, 0x4d, 0x61, 0x74, 0x4d, 0x75, 0x6c, 0x3b, 0x73, 0x65, 0x71, 0x75, 0x65, 0x6e, 0x74, 0x69, 0x61, 0x6c, 0x5f, 0x31, 0x2f, 0x64, 0x65, 0x6e, 0x73, 0x65, 0x5f, 0x31, 0x2f, 0x52, 0x65, 0x6c, 0x75, 0x3b, 0x73, 0x65, 0x71, 0x75, 0x65, 0x6e, 0x74, 0x69, 0x61, 0x6c, 0x5f, 0x31, 0x2f, 0x64, 0x65, 0x6e, 0x73, 0x65, 0x5f, 0x31, 0x2f, 0x42, 0x69, 0x61, 0x73, 0x41, 0x64, 0x64, 0x00, 0x00, 0x02, 0x00, 0x00, 0x00, 0x01, 0x00, 0x00, 0x00, 0x0c, 0x00, 0x00, 0x00, 0x76, 0xfe, 0xff, 0xff, 0x00, 0x00, 0x00, 0x01, 0x10, 0x00, 0x00, 0x00, 0x10, 0x00, 0x00, 0x00, 0x07, 0x00, 0x00, 0x00, 0x44, 0x00, 0x00, 0x00, 0xd4, 0xfd, 0xff, 0xff, 0x36, 0x00, 0x00, 0x00, 0x73, 0x65, 0x71, 0x75, 0x65, 0x6e, 0x74, 0x69, 0x61, 0x6c, 0x5f, 0x31, 0x2f, 0x64, 0x65, 0x6e, 0x73, 0x65, 0x5f, 0x31, 0x2f, 0x52, 0x65, 0x6c, 0x75, 0x3b, 0x73, 0x65, 0x71, 0x75, 0x65, 0x6e, 0x74, 0x69, 0x61, 0x6c, 0x5f, 0x31, 0x2f, 0x64, 0x65, 0x6e, 0x73, 0x65, 0x5f, 0x31, 0x2f, 0x42, 0x69, 0x61, 0x73, 0x41, 0x64, 0x64, 0x00, 0x00, 0x01, 0x00, 0x00, 0x00, 0x0c, 0x00, 0x00, 0x00, 0xd6, 0xfe, 0xff, 0xff, 0x00, 0x00, 0x00, 0x01, 0x10, 0x00, 0x00, 0x00, 0x10, 0x00, 0x00, 0x00, 0x06, 0x00, 0x00, 0x00, 0x28, 0x00, 0x00, 0x00, 0x34, 0xfe, 0xff, 0xff, 0x1b, 0x00, 0x00, 0x00, 0x73, 0x65, 0x71, 0x75, 0x65, 0x6e, 0x74, 0x69, 0x61, 0x6c, 0x5f, 0x31, 0x2f, 0x64, 0x65, 0x6e, 0x73, 0x65, 0x5f, 0x31, 0x2f, 0x4d, 0x61, 0x74, 0x4d, 0x75, 0x6c, 0x00, 0x02, 0x00, 0x00, 0x00, 0x0c, 0x00, 0x00, 0x00, 0x06, 0x00, 0x00, 0x00, 0x1e, 0xff, 0xff, 0xff, 0x00, 0x00, 0x00, 0x01, 0x10, 0x00, 0x00, 0x00, 0x10, 0x00, 0x00, 0x00, 0x05, 0x00, 0x00, 0x00, 0x2c, 0x00, 0x00, 0x00, 0x7c, 0xfe, 0xff, 0xff, 0x1d, 0x00, 0x00, 0x00, 0x73, 0x65, 0x71, 0x75, 0x65, 0x6e, 0x74, 0x69, 0x61, 0x6c, 0x5f, 0x31, 0x2f, 0x64, 0x65, 0x6e, 0x73, 0x65, 0x5f, 0x31, 0x5f, 0x32, 0x2f, 0x4d, 0x61, 0x74, 0x4d, 0x75, 0x6c, 0x00, 0x00, 0x00, 0x02, 0x00, 0x00, 0x00, 0x08, 0x00, 0x00, 0x00, 0x0c, 0x00, 0x00, 0x00, 0x6a, 0xff, 0xff, 0xff, 0x00, 0x00, 0x00, 0x01, 0x10, 0x00, 0x00, 0x00, 0x10, 0x00, 0x00, 0x00, 0x04, 0x00, 0x00, 0x00, 0x2c, 0x00, 0x00, 0x00, 0xc8, 0xfe, 0xff, 0xff, 0x1d, 0x00, 0x00, 0x00, 0x73, 0x65, 0x71, 0x75, 0x65, 0x6e, 0x74, 0x69, 0x61, 0x6c, 0x5f, 0x31, 0x2f, 0x64, 0x65, 0x6e, 0x73, 0x65, 0x5f, 0x32, 0x5f, 0x31, 0x2f, 0x4d, 0x61, 0x74, 0x4d, 0x75, 0x6c, 0x00, 0x00, 0x00, 0x02, 0x00, 0x00, 0x00, 0x04, 0x00, 0x00, 0x00, 0x08, 0x00, 0x00, 0x00, 0xb6, 0xff, 0xff, 0xff, 0x00, 0x00, 0x00, 0x01, 0x10, 0x00, 0x00, 0x00, 0x10, 0x00, 0x00, 0x00, 0x03, 0x00, 0x00, 0x00, 0x2c, 0x00, 0x00, 0x00, 0x14, 0xff, 0xff, 0xff, 0x1e, 0x00, 0x00, 0x00, 0x73, 0x65, 0x71, 0x75, 0x65, 0x6e, 0x74, 0x69, 0x61, 0x6c, 0x5f, 0x31, 0x2f, 0x64, 0x65, 0x6e, 0x73, 0x65, 0x5f, 0x32, 0x5f, 0x31, 0x2f, 0x42, 0x69, 0x61, 0x73, 0x41, 0x64, 0x64, 0x00, 0x00, 0x01, 0x00, 0x00, 0x00, 0x04, 0x00, 0x00, 0x00, 0x00, 0x00, 0x16, 0x00, 0x18, 0x00, 0x14, 0x00, 0x00, 0x00, 0x10, 0x00, 0x0c, 0x00, 0x08, 0x00, 0x00, 0x00, 0x00, 0x00, 0x00, 0x00, 0x07, 0x00, 0x16, 0x00, 0x00, 0x00, 0x00, 0x00, 0x00, 0x01, 0x10, 0x00, 0x00, 0x00, 0x10, 0x00, 0x00, 0x00, 0x02, 0x00, 0x00, 0x00, 0x48, 0x00, 0x00, 0x00, 0x74, 0xff, 0xff, 0xff, 0x3a, 0x00, 0x00, 0x00, 0x73, 0x65, 0x71, 0x75, 0x65, 0x6e, 0x74, 0x69, 0x61, 0x6c, 0x5f, 0x31, 0x2f, 0x64, 0x65, 0x6e, 0x73, 0x65, 0x5f, 0x31, 0x5f, 0x32, 0x2f, 0x52, 0x65, 0x6c, 0x75, 0x3b, 0x73, 0x65, 0x71, 0x75, 0x65, 0x6e, 0x74, 0x69, 0x61, 0x6c, 0x5f, 0x31, 0x2f, 0x64, 0x65, 0x6e, 0x73, 0x65, 0x5f, 0x31, 0x5f, 0x32, 0x2f, 0x42, 0x69, 0x61, 0x73, 0x41, 0x64, 0x64, 0x00, 0x00, 0x01, 0x00, 0x00, 0x00, 0x08, 0x00, 0x00, 0x00, 0x00, 0x00, 0x16, 0x00, 0x1c, 0x00, 0x18, 0x00, 0x00, 0x00, 0x14, 0x00, 0x10, 0x00, 0x0c, 0x00, 0x00, 0x00, 0x00, 0x00, 0x08, 0x00, 0x07, 0x00, 0x16, 0x00, 0x00, 0x00, 0x00, 0x00, 0x00, 0x01, 0x14, 0x00, 0x00, 0x00, 0x20, 0x00, 0x00, 0x00, 0x20, 0x00, 0x00, 0x00, 0x01, 0x00, 0x00, 0x00, 0x3c, 0x00, 0x00, 0x00, 0x02, 0x00, 0x00, 0x00, 0xff, 0xff, 0xff, 0xff, 0x06, 0x00, 0x00, 0x00, 0x04, 0x00, 0x04, 0x00, 0x04, 0x00, 0x00, 0x00, 0x1e, 0x00, 0x00, 0x00, 0x73, 0x65, 0x72, 0x76, 0x69, 0x6e, 0x67, 0x5f, 0x64, 0x65, 0x66, 0x61, 0x75, 0x6c, 0x74, 0x5f, 0x6b, 0x65, 0x72, 0x61, 0x73, 0x5f, 0x74, 0x65, 0x6e, 0x73, 0x6f, 0x72, 0x3a, 0x30, 0x00, 0x00, 0x02, 0x00, 0x00, 0x00, 0x01, 0x00, 0x00, 0x00, 0x06, 0x00, 0x00, 0x00, 0x02, 0x00, 0x00, 0x00, 0x20, 0x00, 0x00, 0x00, 0x04, 0x00, 0x00, 0x00, 0xf4, 0xff, 0xff, 0xff, 0x19, 0x00, 0x00, 0x00, 0x00, 0x00, 0x00, 0x19, 0x0c, 0x00, 0x0c, 0x00, 0x0b, 0x00, 0x00, 0x00, 0x00, 0x00, 0x04, 0x00, 0x0c, 0x00, 0x00, 0x00, 0x09, 0x00, 0x00, 0x00, 0x00, 0x00, 0x00, 0x09
};
const unsigned int edge_model_tflite_len = 3088;
